{
  "version": "1.0",
  "truncation": null,
  "padding": null,
  "added_tokens": [
    {
      "id": 0,
      "content": "<|endoftext|>",
      "single_word": false,
      "lstrip": false,
      "rstrip": false,
      "normalized": false,
      "special": true
    },
    {
      "id": 1,
      "content": "<|state|>",
      "single_word": false,
      "lstrip": false,
      "rstrip": false,
      "normalized": false,
      "special": true
    },
    {
      "id": 2,
      "content": "<|q|>",
      "single_word": false,
      "lstrip": false,
      "rstrip": false,
      "normalized": false,
      "special": true
    },
    {
      "id": 3,
      "content": "<|opt|>",
      "single_word": false,
      "lstrip": false,
      "rstrip": false,
      "normalized": false,
      "special": true
    },
    {
      "id": 4,
      "content": "</opt>",
      "single_word": false,
      "lstrip": false,
      "rstrip": false,
      "normalized": false,
      "special": true
    },
    {
      "id": 5,
      "content": "<|decide|>",
      "single_word": false,
      "lstrip": false,
      "rstrip": false,
      "normalized": false,
      "special": true
    }
  ],
  "normalizer": null,
  "pre_tokenizer": {
    "type": "ByteLevel",
    "add_prefix_space": false,
    "trim_offsets": true,
    "use_regex": true
  },
  "post_processor": null,
  "decoder": {
    "type": "ByteLevel",
    "add_prefix_space": true,
    "trim_offsets": true,
    "use_regex": true
  },
  "model": {
    "type": "BPE",
    "dropout": null,
    "unk_token": null,
    "continuing_subword_prefix": null,
    "end_of_word_suffix": null,
    "fuse_unk": false,
    "byte_fallback": false,
    "ignore_merges": false,
    "vocab": {
      "<|endoftext|>": 0,
      "<|state|>": 1,
      "<|q|>": 2,
      "<|opt|>": 3,
      "</opt>": 4,
      "<|decide|>": 5,
      "!": 6,
      "\"": 7,
      "#": 8,
      "$": 9,
      "%": 10,
      "&": 11,
      "'": 12,
      "(": 13,
      ")": 14,
      "*": 15,
      "+": 16,
      ",": 17,
      "-": 18,
      ".": 19,
      "/": 20,
      "0": 21,
      "1": 22,
      "2": 23,
      "3": 24,
      "4": 25,
      "5": 26,
      "6": 27,
      "7": 28,
      "8": 29,
      "9": 30,
      ":": 31,
      ";": 32,
      "<": 33,
      "=": 34,
      ">": 35,
      "?": 36,
      "@": 37,
      "A": 38,
      "B": 39,
      "C": 40,
      "D": 41,
      "E": 42,
      "F": 43,
      "G": 44,
      "H": 45,
      "I": 46,
      "J": 47,
      "K": 48,
      "L": 49,
      "M": 50,
      "N": 51,
      "O": 52,
      "P": 53,
      "Q": 54,
      "R": 55,
      "S": 56,
      "T": 57,
      "U": 58,
      "V": 59,
      "W": 60,
      "X": 61,
      "Y": 62,
      "Z": 63,
      "[": 64,
      "\\": 65,
      "]": 66,
      "^": 67,
      "_": 68,
      "`": 69,
      "a": 70,
      "b": 71,
      "c": 72,
      "d": 73,
      "e": 74,
      "f": 75,
      "g": 76,
      "h": 77,
      "i": 78,
      "j": 79,
      "k": 80,
      "l": 81,
      "m": 82,
      "n": 83,
      "o": 84,
      "p": 85,
      "q": 86,
      "r": 87,
      "s": 88,
      "t": 89,
      "u": 90,
      "v": 91,
      "w": 92,
      "x": 93,
      "y": 94,
      "z": 95,
      "{": 96,
      "|": 97,
      "}": 98,
      "~": 99,
      "¡": 100,
      "¢": 101,
      "£": 102,
      "¤": 103,
      "¥": 104,
      "¦": 105,
      "§": 106,
      "¨": 107,
      "©": 108,
      "ª": 109,
      "«": 110,
      "¬": 111,
      "®": 112,
      "¯": 113,
      "°": 114,
      "±": 115,
      "²": 116,
      "³": 117,
      "´": 118,
      "µ": 119,
      "¶": 120,
      "·": 121,
      "¸": 122,
      "¹": 123,
      "º": 124,
      "»": 125,
      "¼": 126,
      "½": 127,
      "¾": 128,
      "¿": 129,
      "À": 130,
      "Á": 131,
      "Â": 132,
      "Ã": 133,
      "Ä": 134,
      "Å": 135,
      "Æ": 136,
      "Ç": 137,
      "È": 138,
      "É": 139,
      "Ê": 140,
      "Ë": 141,
      "Ì": 142,
      "Í": 143,
      "Î": 144,
      "Ï": 145,
      "Ð": 146,
      "Ñ": 147,
      "Ò": 148,
      "Ó": 149,
      "Ô": 150,
      "Õ": 151,
      "Ö": 152,
      "×": 153,
      "Ø": 154,
      "Ù": 155,
      "Ú": 156,
      "Û": 157,
      "Ü": 158,
      "Ý": 159,
      "Þ": 160,
      "ß": 161,
      "à": 162,
      "á": 163,
      "â": 164,
      "ã": 165,
      "ä": 166,
      "å": 167,
      "æ": 168,
      "ç": 169,
      "è": 170,
      "é": 171,
      "ê": 172,
      "ë": 173,
      "ì": 174,
      "í": 175,
      "î": 176,
      "ï": 177,
      "ð": 178,
      "ñ": 179,
      "ò": 180,
      "ó": 181,
      "ô": 182,
      "õ": 183,
      "ö": 184,
      "÷": 185,
      "ø": 186,
      "ù": 187,
      "ú": 188,
      "û": 189,
      "ü": 190,
      "ý": 191,
      "þ": 192,
      "ÿ": 193,
      "Ā": 194,
      "ā": 195,
      "Ă": 196,
      "ă": 197,
      "Ą": 198,
      "ą": 199,
      "Ć": 200,
      "ć": 201,
      "Ĉ": 202,
      "ĉ": 203,
      "Ċ": 204,
      "ċ": 205,
      "Č": 206,
      "č": 207,
      "Ď": 208,
      "ď": 209,
      "Đ": 210,
      "đ": 211,
      "Ē": 212,
      "ē": 213,
      "Ĕ": 214,
      "ĕ": 215,
      "Ė": 216,
      "ė": 217,
      "Ę": 218,
      "ę": 219,
      "Ě": 220,
      "ě": 221,
      "Ĝ": 222,
      "ĝ": 223,
      "Ğ": 224,
      "ğ": 225,
      "Ġ": 226,
      "ġ": 227,
      "Ģ": 228,
      "ģ": 229,
      "Ĥ": 230,
      "ĥ": 231,
      "Ħ": 232,
      "ħ": 233,
      "Ĩ": 234,
      "ĩ": 235,
      "Ī": 236,
      "ī": 237,
      "Ĭ": 238,
      "ĭ": 239,
      "Į": 240,
      "į": 241,
      "İ": 242,
      "ı": 243,
      "Ĳ": 244,
      "ĳ": 245,
      "Ĵ": 246,
      "ĵ": 247,
      "Ķ": 248,
      "ķ": 249,
      "ĸ": 250,
      "Ĺ": 251,
      "ĺ": 252,
      "Ļ": 253,
      "ļ": 254,
      "Ľ": 255,
      "ľ": 256,
      "Ŀ": 257,
      "ŀ": 258,
      "Ł": 259,
      "ł": 260,
      "Ń": 261,
      "er": 262,
      "ic": 263,
      "Ġt": 264,
      "ev": 265,
      "al": 266,
      "at": 267,
      "en": 268,
      "ent": 269,
      "in": 270,
      "is": 271,
      "on": 272,
      "Ġc": 273,
      "ice": 274,
      "evice": 275,
      "ri": 276,
      "rt": 277,
      "Ġth": 278,
      "es": 279,
      "ed": 280,
      "an": 281,
      "device": 282,
      "st": 283,
      "el": 284,
      "Ġo": 285,
      "ur": 286,
      "ep": 287,
      "ion": 288,
      "evel": 289,
      "ation": 290,
      "ry": 291,
      "et": 292,
      "ment": 293,
      "%)": 294,
      "Ġ(": 295,
      "art": 296,
      "dep": 297,
      "ical": 298,
      "rit": 299,
      "artment": 300,
      "department": 301,
      "and": 302,
      "Level": 303,
      "Ġl": 304,
      "Ġa": 305,
      "Ġthe": 306,
      "per": 307,
      "ate": 308,
      "ro": 309,
      "qu": 310,
      "ut": 311,
      "pp": 312,
      "ust": 313,
      "iv": 314,
      "ĠT": 315,
      "ket": 316,
      "icket": 317,
      "ritical": 318,
      "qui": 319,
      "Ġs": 320,
      "Ġm": 321,
      "ort": 322,
      "Ġthis": 323,
      "esc": 324,
      "ĠR": 325,
      "ive": 326,
      "om": 327,
      "Ġp": 328,
      "ered": 329,
      "Ġis": 330,
      "ing": 331,
      "re": 332,
      "gis": 333,
      "Ġdevice": 334,
      "gist": 335,
      "Ġof": 336,
      "ess": 337,
      "ĠS": 338,
      "Ġin": 339,
      "se": 340,
      "Ġb": 341,
      "it": 342,
      "ea": 343,
      "Ġac": 344,
      "ustom": 345,
      "ĠM": 346,
      "Ġst": 347,
      "ec": 348,
      "out": 349,
      "upp": 350,
      "Ġesc": 351,
      "Ġre": 352,
      "Ġticket": 353,
      "alation": 354,
      "Ġcon": 355,
      "Ġcritical": 356,
      "quiry": 357,
      "ustomer": 358,
      "Ġstand": 359,
      "upport": 360,
      "Ġescalation": 361,
      "20": 362,
      "Is": 363,
      "fal": 364,
      "ru": 365,
      "tru": 366,
      "Ġoper": 367,
      "ational": 368,
      "ity": 369,
      "false": 370,
      "true": 371,
      "40": 372,
      "im": 373,
      "ow": 374,
      "60": 375,
      "gh": 376,
      "igh": 377,
      "80": 378,
      "ar": 379,
      "Ġh": 380,
      "Device": 381,
      "egist": 382,
      "rent": 383,
      "tive": 384,
      "um": 385,
      "urrent": 386,
      "Ġactive": 387,
      "Ġ2": 388,
      "oc": 389,
      "Ġ1": 390,
      "ag": 391,
      "Ġf": 392,
      "Ġoff": 393,
      "od": 394,
      "Ġon": 395,
      "red": 396,
      "Ġ#": 397,
      "ever": 398,
      "ard": 399,
      "age": 400,
      "id": 401,
      "ss": 402,
      "il": 403,
      "Ġ3": 404,
      "Ġtea": 405,
      "ine": 406,
      "Ġapp": 407,
      "Ġteam": 408,
      "Ġd": 409,
      "Ass": 410,
      "Critical": 411,
      "Customer": 412,
      "LA": 413,
      "Rout": 414,
      "Support": 415,
      "Us": 416,
      "af": 417,
      "aro": 418,
      "by": 419,
      "cer": 420,
      "ex": 421,
      "gent": 422,
      "hn": 423,
      "ier": 424,
      "ling": 425,
      "nd": 426,
      "naro": 427,
      "orit": 428,
      "pri": 429,
      "rust": 430,
      "support": 431,
      "sid": 432,
      "saf": 433,
      "und": 434,
      "Ġ\"": 435,
      "ĠCritical": 436,
      "Ġex": 437,
      "erate": 438,
      "Ġto": 439,
      "Ġtur": 440,
      "Ġtec": 441,
      "Ġtrust": 442,
      "ales": 443,
      "inquiry": 444,
      "Ġcustomer": 445,
      "riorit": 446,
      "urgent": 447,
      "ety": 448,
      "Ġlevel": 449,
      "ropri": 450,
      "utive": 451,
      "ĠTicket": 452,
      "ĠTier": 453,
      "quired": 454,
      "Ġsever": 455,
      "Ġsales": 456,
      "ĠRout": 457,
      "Ġpriorit": 458,
      "essage": 459,
      "ĠSLA": 460,
      "Ġinquiry": 461,
      "Ġbil": 462,
      "ĠMod": 463,
      "ĠMessage": 464,
      "ecutive": 465,
      "Ġrequired": 466,
      "Ġconcer": 467,
      "Ġconsid": 468,
      "Ġstandard": 469,
      "Ġstandby": 470,
      "Ġoperational": 471,
      "Ġappropri": 472,
      "Assess": 473,
      "Route": 474,
      "User": 475,
      "hnical": 476,
      "naround": 477,
      "safety": 478,
      "Ġexecutive": 479,
      "Ġturnaround": 480,
      "Ġtechnical": 481,
      "Ġseverity": 482,
      "ĠRoutine": 483,
      "Ġpriority": 484,
      "Ġbilling": 485,
      "ĠModerate": 486,
      "Ġconcern": 487,
      "Ġconsidered": 488,
      "Ġappropriate": 489,
      "edi": 490,
      "Ġand": 491,
      "Ġent": 492,
      "ating": 493,
      "ure": 494,
      "Ġma": 495,
      "Ġligh": 496,
      "Ġlight": 497,
      "Ġfan": 498,
      "00": 499,
      "ker": 500,
      "pea": 501,
      "Ġspea": 502,
      "Ġspeaker": 503,
      "100": 504,
      "Am": 505,
      "Current": 506,
      "Loc": 507,
      "Ow": 508,
      "Oper": 509,
      "Rate": 510,
      "Regist": 511,
      "Wh": 512,
      "ac": 513,
      "ap": 514,
      "bi": 515,
      "bed": 516,
      "em": 517,
      "ly": 518,
      "ner": 519,
      "tat": 520,
      "us": 521,
      "xim": 522,
      "Â°": 523,
      "ĠLevel": 524,
      "ĠOw": 525,
      "ich": 526,
      "ature": 527,
      "inim": 528,
      "Ġcurrent": 529,
      "Ġcap": 530,
      "ribed": 531,
      "Ġor": 532,
      "eport": 533,
      "Ġ(<": 534,
      "Ġlow": 535,
      "perature": 536,
      "ĠTem": 537,
      "Ġmedi": 538,
      "Ġminim": 539,
      "escribed": 540,
      "ĠRegist": 541,
      "ĠReport": 542,
      "Ġpow": 543,
      "gistry": 544,
      "ĠStat": 545,
      "Ġregistry": 546,
      "Ġoperating": 547,
      "Ġhigh": 548,
      "Ġdescribed": 549,
      "Ġentry": 550,
      "Ġmaxim": 551,
      "Ambi": 552,
      "Location": 553,
      "Operational": 554,
      "Registered": 555,
      "Which": 556,
      "acity": 557,
      "ĠOwner": 558,
      "Ġcurrently": 559,
      "Ġcapacity": 560,
      "ĠTemperature": 561,
      "Ġmedium": 562,
      "Ġminimal": 563,
      "ĠRegistry": 564,
      "Ġpowered": 565,
      "ĠStatus": 566,
      "Ġmaximum": 567,
      "Ambient": 568,
      "eat": 569,
      "Ġheat": 570,
      "Ġheater": 571,
      ".\"": 572,
      "Ġtv": 573,
      "ds": 574,
      "lin": 575,
      "Ġloc": 576,
      "Ġblin": 577,
      "Ġlock": 578,
      "Ġblinds": 579,
      "ĠE": 580,
      "pr": 581,
      "erpr": 582,
      "ise": 583,
      "erprise": 584,
      "Ġw": 585,
      "ĠI": 586,
      "Ġg": 587,
      "ay": 588,
      "nt": 589,
      "op": 590,
      "ĠP": 591,
      "ĠEnt": 592,
      "ĠEnterprise": 593,
      "or": 594,
      "anc": 595,
      "Ġfor": 596,
      "Ġwe": 597,
      "Ġr": 598,
      "?\"": 599,
      "Ġer": 600,
      "ann": 601,
      "ror": 602,
      "room": 603,
      "Ġerror": 604,
      "Ġpro": 605,
      "ĠPro": 606,
      "Fre": 607,
      "ĠA": 608,
      "ĠD": 609,
      "ĠFre": 610,
      "Ġch": 611,
      "ĠFree": 612,
      "av": 613,
      "way": 614,
      "ateway": 615,
      "Ġmy": 616,
      "Ġen": 617,
      "ara": 618,
      "We": 619,
      "82": 620,
      "Can": 621,
      "OC": 622,
      "fic": 623,
      "ianc": 624,
      "ific": 625,
      "lianc": 626,
      "our": 627,
      "pe": 628,
      "plianc": 629,
      "tific": 630,
      "your": 631,
      "ype": 632,
      "Ġ6": 633,
      "Ġyour": 634,
      "ertific": 635,
      "Ġcom": 636,
      "Ġcop": 637,
      "Ġcertific": 638,
      "ĠType": 639,
      "ĠSOC": 640,
      "ĠII": 641,
      "Ġget": 642,
      "pliance": 643,
      "Ġcompliance": 644,
      "Ġcopy": 645,
      "Ġcertificate": 646,
      "120": 647,
      "My": 648,
      "ast": 649,
      "cess": 650,
      "ek": 651,
      "ew": 652,
      "lation": 653,
      "ted": 654,
      "ual": 655,
      "Ġ5": 656,
      "Ġann": 657,
      "Ġtod": 658,
      "enew": 659,
      "Ġcanc": 660,
      "ested": 661,
      "ellation": 662,
      "Ġlast": 663,
      "quested": 664,
      "Ġbut": 665,
      "Ġrequested": 666,
      "Ġweek": 667,
      "Ġrenew": 668,
      "Ġprocess": 669,
      "Ġannual": 670,
      "Ġtoday": 671,
      "Ġcancellation": 672,
      "Ġrenewal": 673,
      "Ġprocessed": 674,
      "con": 675,
      "Ġroom": 676,
      "alcon": 677,
      "Ġliv": 678,
      "Ġbalcon": 679,
      "Ġliving": 680,
      "Ġbalcony": 681,
      "982": 682,
      "as": 683,
      "ged": 684,
      "lea": 685,
      "medi": 686,
      "nit": 687,
      "oice": 688,
      "voice": 689,
      "wice": 690,
      "ya": 691,
      "Ġ$": 692,
      "Ġim": 693,
      "Ġtwice": 694,
      "atel": 695,
      "Ġcred": 696,
      "Ġcard": 697,
      "ivya": 698,
      "Ġinvoice": 699,
      "arage": 700,
      "arged": 701,
      "everse": 702,
      "Ġwas": 703,
      "Ġgarage": 704,
      "ĠPlea": 705,
      "Ġreverse": 706,
      "ĠAnit": 707,
      "ĠDivya": 708,
      "Ġcharged": 709,
      "9821": 710,
      "mediatel": 711,
      "Ġimmediatel": 712,
      "Ġcredit": 713,
      "ĠPlease": 714,
      "ĠAnita": 715,
      "Ġimmediately": 716,
      "02": 717,
      "Ba": 718,
      "Gateway": 719,
      "PI": 720,
      "Som": 721,
      "Th": 722,
      "bl": 723,
      "dp": 724,
      "eon": 725,
      "ean": 726,
      "oin": 727,
      "ost": 728,
      "sive": 729,
      "ts": 730,
      "ubl": 731,
      "wing": 732,
      "Ġal": 733,
      "ĠBa": 734,
      "ĠGateway": 735,
      "aten": 736,
      "ensive": 737,
      "Ġthro": 738,
      "Ġthre": 739,
      "Ġour": 740,
      "urop": 741,
      "Ġmess": 742,
      "ĠRav": 743,
      "Ġpost": 744,
      "Ġpubl": 745,
      "Ġhara": 746,
      "ages": 747,
      "Ġoffensive": 748,
      "ssment": 749,
      "ĠEurop": 750,
      "Ġgateway": 751,
      "annel": 752,
      "Ġerrors": 753,
      "ĠAPI": 754,
      "ĠDav": 755,
      "Ġchannel": 756,
      "Ġendp": 757,
      "Ġ502": 758,
      "Someon": 759,
      "The": 760,
      "oints": 761,
      "Ġall": 762,
      "ĠBad": 763,
      "atening": 764,
      "Ġthrowing": 765,
      "Ġthreatening": 766,
      "Ġmessages": 767,
      "ĠRavi": 768,
      "Ġposted": 769,
      "Ġpublic": 770,
      "Ġharassment": 771,
      "ĠEuropean": 772,
      "ĠDavid": 773,
      "Ġendpoints": 774,
      "Someone": 775,
      "46": 776,
      "84": 777,
      "87": 778,
      "How": 779,
      "SO": 780,
      "date": 781,
      "eed": 782,
      "fil": 783,
      "gine": 784,
      "kt": 785,
      "lan": 786,
      "need": 787,
      "pdate": 788,
      "ric": 789,
      "ting": 790,
      "ture": 791,
      "uating": 792,
      "update": 793,
      "Ġev": 794,
      "Ġ40": 795,
      "ĠWe": 796,
      "Ġneed": 797,
      "Ġupdate": 798,
      "ers": 799,
      "icture": 800,
      "aluating": 801,
      "Ġcustom": 802,
      "eskt": 803,
      "edroom": 804,
      "ster": 805,
      "etting": 806,
      "Ġare": 807,
      "Ġsetting": 808,
      "Ġplan": 809,
      "Ġpric": 810,
      "Ġpicture": 811,
      "ĠSara": 812,
      "ĠSSO": 813,
      "Ġbedroom": 814,
      "Ġ29": 815,
      "Ġdo": 816,
      "Ġdeskt": 817,
      "Ġenterprise": 818,
      "Ġmaster": 819,
      "Ġprofil": 820,
      "Ġengine": 821,
      "Ġevaluating": 822,
      "Ġ400": 823,
      "Ġsettings": 824,
      "Ġplans": 825,
      "Ġpricing": 826,
      "ĠSarah": 827,
      "Ġdesktop": 828,
      "Ġprofile": 829,
      "Ġengineers": 830,
      "15": 831,
      "27": 832,
      "Ki": 833,
      "ran": 834,
      "Ġ9": 835,
      "Ġ20": 836,
      "ĠKi": 837,
      "Ġ24": 838,
      "Ġ18": 839,
      "Ġ19": 840,
      "ĠKiran": 841,
      "43": 842,
      "96": 843,
      "ase": 844,
      "dy": 845,
      "eer": 846,
      "udy": 847,
      "Ġbase": 848,
      "ĠMeer": 849,
      "Ġstudy": 850,
      "Ġ22": 851,
      "Ġ16": 852,
      "Ġbasement": 853,
      "ĠMeera": 854,
      "03": 855,
      "16": 856,
      "32": 857,
      "42": 858,
      "44": 859,
      "45": 860,
      "48": 861,
      "51": 862,
      "57": 863,
      "62": 864,
      "69": 865,
      "ch": 866,
      "kit": 867,
      "Ġ7": 868,
      "Ġkit": 869,
      "Ġ23": 870,
      "Ġ17": 871,
      "Ġ68": 872,
      "chen": 873,
      "Ġkitchen": 874,
      "07": 875,
      "127": 876,
      "23": 877,
      "31": 878,
      "37": 879,
      "537": 880,
      "70": 881,
      "85": 882,
      "896": 883,
      "90": 884,
      "hroom": 885,
      "Ġ82": 886,
      "Ġ46": 887,
      "Ġ84": 888,
      "athroom": 889,
      "Ġbathroom": 890,
      "Ġ21": 891,
      "Ġ25": 892,
      "Ġ27": 893,
      "Ġ28": 894,
      "Ġ37": 895,
      "Ġ38": 896,
      "Ġ66": 897,
      "Ġ53": 898,
      "Ġ99": 899,
      "321": 900,
      "05": 901,
      "085": 902,
      "11": 903,
      "13": 904,
      "19": 905,
      "160": 906,
      "148": 907,
      "1896": 908,
      "1321": 909,
      "260": 910,
      "269": 911,
      "33": 912,
      "35": 913,
      "39": 914,
      "380": 915,
      "303": 916,
      "342": 917,
      "345": 918,
      "357": 919,
      "3085": 920,
      "41": 921,
      "47": 922,
      "415": 923,
      "56": 924,
      "58": 925,
      "500": 926,
      "587": 927,
      "596": 928,
      "562": 929,
      "507": 930,
      "68": 931,
      "627": 932,
      "616": 933,
      "657": 934,
      "61321": 935,
      "6587": 936,
      "74": 937,
      "79": 938,
      "784": 939,
      "715": 940,
      "703": 941,
      "716": 942,
      "744": 943,
      "751": 944,
      "762": 945,
      "723": 946,
      "774": 947,
      "81": 948,
      "89": 949,
      "882": 950,
      "887": 951,
      "815": 952,
      "831": 953,
      "839": 954,
      "94": 955,
      "97": 956,
      "99": 957,
      "940": 958,
      "960": 959,
      "987": 960,
      "915": 961,
      "951": 962,
      "9321": 963,
      "9260": 964,
      "Ġ60": 965,
      "Ġ43": 966,
      "Ġ42": 967,
      "Ġ44": 968,
      "Ġ85": 969,
      "Ġ41": 970,
      "80774": 971,
      "Ġ26": 972,
      "Ġ100": 973,
      "Ġ30": 974,
      "Ġ34": 975,
      "Ġ61": 976,
      "Ġ62": 977,
      "Ġ63": 978,
      "Ġ65": 979,
      "Ġ67": 980,
      "Ġ69": 981,
      "12011": 982,
      "Ġ59": 983,
      "465": 984,
      "4627": 985,
      "46127": 986,
      "84537": 987,
      "84839": 988,
      "84987": 989,
      "870": 990,
      "87882": 991,
      "15751": 992,
      "271": 993,
      "Ġ91": 994,
      "Ġ95": 995,
      "Ġ98": 996,
      "4316": 997,
      "43723": 998,
      "9645": 999,
      "32269": 1000,
      "44715": 1001,
      "481": 1002,
      "51120": 1003,
      "62870": 1004,
      "Ġ72": 1005,
      "Ġ77": 1006,
      "Ġ79": 1007,
      "12733": 1008,
      "31716": 1009,
      "53745": 1010,
      "70415": 1011,
      "70465": 1012,
      "16007": 1013,
      "14868": 1014,
      "18966": 1015,
      "35271": 1016,
      "38003": 1017,
      "30390": 1018,
      "34246": 1019,
      "35797": 1020,
      "30852": 1021,
      "47345": 1022,
      "56616": 1023,
      "50013": 1024,
      "59648": 1025,
      "56290": 1026,
      "50743": 1027,
      "62742": 1028,
      "65769": 1029,
      "65873": 1030,
      "79896": 1031,
      "78458": 1032,
      "70394": 1033,
      "74440": 1034,
      "76299": 1035,
      "89481": 1036,
      "88769": 1037,
      "81581": 1038,
      "83187": 1039,
      "94057": 1040,
      "96019": 1041,
      "91523": 1042,
      "95105": 1043,
      "93214": 1044,
      "92606": 1045,
      "46276": 1046,
      "43167": 1047,
      "96459": 1048
    },
    "merges": [
      [
        "e",
        "r"
      ],
      [
        "i",
        "c"
      ],
      [
        "Ġ",
        "t"
      ],
      [
        "e",
        "v"
      ],
      [
        "a",
        "l"
      ],
      [
        "a",
        "t"
      ],
      [
        "e",
        "n"
      ],
      [
        "en",
        "t"
      ],
      [
        "i",
        "n"
      ],
      [
        "i",
        "s"
      ],
      [
        "o",
        "n"
      ],
      [
        "Ġ",
        "c"
      ],
      [
        "ic",
        "e"
      ],
      [
        "ev",
        "ice"
      ],
      [
        "r",
        "i"
      ],
      [
        "r",
        "t"
      ],
      [
        "Ġt",
        "h"
      ],
      [
        "e",
        "s"
      ],
      [
        "e",
        "d"
      ],
      [
        "a",
        "n"
      ],
      [
        "d",
        "evice"
      ],
      [
        "s",
        "t"
      ],
      [
        "e",
        "l"
      ],
      [
        "Ġ",
        "o"
      ],
      [
        "u",
        "r"
      ],
      [
        "e",
        "p"
      ],
      [
        "i",
        "on"
      ],
      [
        "ev",
        "el"
      ],
      [
        "at",
        "ion"
      ],
      [
        "r",
        "y"
      ],
      [
        "e",
        "t"
      ],
      [
        "m",
        "ent"
      ],
      [
        "%",
        ")"
      ],
      [
        "Ġ",
        "("
      ],
      [
        "a",
        "rt"
      ],
      [
        "d",
        "ep"
      ],
      [
        "ic",
        "al"
      ],
      [
        "ri",
        "t"
      ],
      [
        "art",
        "ment"
      ],
      [
        "dep",
        "artment"
      ],
      [
        "an",
        "d"
      ],
      [
        "L",
        "evel"
      ],
      [
        "Ġ",
        "l"
      ],
      [
        "Ġ",
        "a"
      ],
      [
        "Ġth",
        "e"
      ],
      [
        "p",
        "er"
      ],
      [
        "at",
        "e"
      ],
      [
        "r",
        "o"
      ],
      [
        "q",
        "u"
      ],
      [
        "u",
        "t"
      ],
      [
        "p",
        "p"
      ],
      [
        "u",
        "st"
      ],
      [
        "i",
        "v"
      ],
      [
        "Ġ",
        "T"
      ],
      [
        "k",
        "et"
      ],
      [
        "ic",
        "ket"
      ],
      [
        "rit",
        "ical"
      ],
      [
        "qu",
        "i"
      ],
      [
        "Ġ",
        "s"
      ],
      [
        "Ġ",
        "m"
      ],
      [
        "o",
        "rt"
      ],
      [
        "Ġth",
        "is"
      ],
      [
        "es",
        "c"
      ],
      [
        "Ġ",
        "R"
      ],
      [
        "iv",
        "e"
      ],
      [
        "o",
        "m"
      ],
      [
        "Ġ",
        "p"
      ],
      [
        "er",
        "ed"
      ],
      [
        "Ġ",
        "is"
      ],
      [
        "in",
        "g"
      ],
      [
        "r",
        "e"
      ],
      [
        "g",
        "is"
      ],
      [
        "Ġ",
        "device"
      ],
      [
        "gis",
        "t"
      ],
      [
        "Ġo",
        "f"
      ],
      [
        "es",
        "s"
      ],
      [
        "Ġ",
        "S"
      ],
      [
        "Ġ",
        "in"
      ],
      [
        "s",
        "e"
      ],
      [
        "Ġ",
        "b"
      ],
      [
        "i",
        "t"
      ],
      [
        "e",
        "a"
      ],
      [
        "Ġa",
        "c"
      ],
      [
        "ust",
        "om"
      ],
      [
        "Ġ",
        "M"
      ],
      [
        "Ġ",
        "st"
      ],
      [
        "e",
        "c"
      ],
      [
        "o",
        "ut"
      ],
      [
        "u",
        "pp"
      ],
      [
        "Ġ",
        "esc"
      ],
      [
        "Ġ",
        "re"
      ],
      [
        "Ġt",
        "icket"
      ],
      [
        "al",
        "ation"
      ],
      [
        "Ġc",
        "on"
      ],
      [
        "Ġc",
        "ritical"
      ],
      [
        "qui",
        "ry"
      ],
      [
        "ustom",
        "er"
      ],
      [
        "Ġst",
        "and"
      ],
      [
        "upp",
        "ort"
      ],
      [
        "Ġesc",
        "alation"
      ],
      [
        "2",
        "0"
      ],
      [
        "I",
        "s"
      ],
      [
        "f",
        "al"
      ],
      [
        "r",
        "u"
      ],
      [
        "t",
        "ru"
      ],
      [
        "Ġo",
        "per"
      ],
      [
        "ation",
        "al"
      ],
      [
        "it",
        "y"
      ],
      [
        "fal",
        "se"
      ],
      [
        "tru",
        "e"
      ],
      [
        "4",
        "0"
      ],
      [
        "i",
        "m"
      ],
      [
        "o",
        "w"
      ],
      [
        "6",
        "0"
      ],
      [
        "g",
        "h"
      ],
      [
        "i",
        "gh"
      ],
      [
        "8",
        "0"
      ],
      [
        "a",
        "r"
      ],
      [
        "Ġ",
        "h"
      ],
      [
        "D",
        "evice"
      ],
      [
        "e",
        "gist"
      ],
      [
        "r",
        "ent"
      ],
      [
        "t",
        "ive"
      ],
      [
        "u",
        "m"
      ],
      [
        "ur",
        "rent"
      ],
      [
        "Ġac",
        "tive"
      ],
      [
        "Ġ",
        "2"
      ],
      [
        "o",
        "c"
      ],
      [
        "Ġ",
        "1"
      ],
      [
        "a",
        "g"
      ],
      [
        "Ġ",
        "f"
      ],
      [
        "Ġof",
        "f"
      ],
      [
        "o",
        "d"
      ],
      [
        "Ġ",
        "on"
      ],
      [
        "r",
        "ed"
      ],
      [
        "Ġ",
        "#"
      ],
      [
        "ev",
        "er"
      ],
      [
        "ar",
        "d"
      ],
      [
        "ag",
        "e"
      ],
      [
        "i",
        "d"
      ],
      [
        "s",
        "s"
      ],
      [
        "i",
        "l"
      ],
      [
        "Ġ",
        "3"
      ],
      [
        "Ġt",
        "ea"
      ],
      [
        "in",
        "e"
      ],
      [
        "Ġa",
        "pp"
      ],
      [
        "Ġtea",
        "m"
      ],
      [
        "Ġ",
        "d"
      ],
      [
        "A",
        "ss"
      ],
      [
        "C",
        "ritical"
      ],
      [
        "C",
        "ustomer"
      ],
      [
        "L",
        "A"
      ],
      [
        "R",
        "out"
      ],
      [
        "S",
        "upport"
      ],
      [
        "U",
        "s"
      ],
      [
        "a",
        "f"
      ],
      [
        "a",
        "ro"
      ],
      [
        "b",
        "y"
      ],
      [
        "c",
        "er"
      ],
      [
        "e",
        "x"
      ],
      [
        "g",
        "ent"
      ],
      [
        "h",
        "n"
      ],
      [
        "i",
        "er"
      ],
      [
        "l",
        "ing"
      ],
      [
        "n",
        "d"
      ],
      [
        "n",
        "aro"
      ],
      [
        "o",
        "rit"
      ],
      [
        "p",
        "ri"
      ],
      [
        "r",
        "ust"
      ],
      [
        "s",
        "upport"
      ],
      [
        "s",
        "id"
      ],
      [
        "s",
        "af"
      ],
      [
        "u",
        "nd"
      ],
      [
        "Ġ",
        "\""
      ],
      [
        "Ġ",
        "Critical"
      ],
      [
        "Ġ",
        "ex"
      ],
      [
        "er",
        "ate"
      ],
      [
        "Ġt",
        "o"
      ],
      [
        "Ġt",
        "ur"
      ],
      [
        "Ġt",
        "ec"
      ],
      [
        "Ġt",
        "rust"
      ],
      [
        "al",
        "es"
      ],
      [
        "in",
        "quiry"
      ],
      [
        "Ġc",
        "ustomer"
      ],
      [
        "ri",
        "orit"
      ],
      [
        "ur",
        "gent"
      ],
      [
        "et",
        "y"
      ],
      [
        "Ġl",
        "evel"
      ],
      [
        "ro",
        "pri"
      ],
      [
        "ut",
        "ive"
      ],
      [
        "ĠT",
        "icket"
      ],
      [
        "ĠT",
        "ier"
      ],
      [
        "qui",
        "red"
      ],
      [
        "Ġs",
        "ever"
      ],
      [
        "Ġs",
        "ales"
      ],
      [
        "ĠR",
        "out"
      ],
      [
        "Ġp",
        "riorit"
      ],
      [
        "ess",
        "age"
      ],
      [
        "ĠS",
        "LA"
      ],
      [
        "Ġin",
        "quiry"
      ],
      [
        "Ġb",
        "il"
      ],
      [
        "ĠM",
        "od"
      ],
      [
        "ĠM",
        "essage"
      ],
      [
        "ec",
        "utive"
      ],
      [
        "Ġre",
        "quired"
      ],
      [
        "Ġcon",
        "cer"
      ],
      [
        "Ġcon",
        "sid"
      ],
      [
        "Ġstand",
        "ard"
      ],
      [
        "Ġstand",
        "by"
      ],
      [
        "Ġoper",
        "ational"
      ],
      [
        "Ġapp",
        "ropri"
      ],
      [
        "Ass",
        "ess"
      ],
      [
        "Rout",
        "e"
      ],
      [
        "Us",
        "er"
      ],
      [
        "hn",
        "ical"
      ],
      [
        "naro",
        "und"
      ],
      [
        "saf",
        "ety"
      ],
      [
        "Ġex",
        "ecutive"
      ],
      [
        "Ġtur",
        "naround"
      ],
      [
        "Ġtec",
        "hnical"
      ],
      [
        "Ġsever",
        "ity"
      ],
      [
        "ĠRout",
        "ine"
      ],
      [
        "Ġpriorit",
        "y"
      ],
      [
        "Ġbil",
        "ling"
      ],
      [
        "ĠMod",
        "erate"
      ],
      [
        "Ġconcer",
        "n"
      ],
      [
        "Ġconsid",
        "ered"
      ],
      [
        "Ġappropri",
        "ate"
      ],
      [
        "ed",
        "i"
      ],
      [
        "Ġ",
        "and"
      ],
      [
        "Ġ",
        "ent"
      ],
      [
        "at",
        "ing"
      ],
      [
        "ur",
        "e"
      ],
      [
        "Ġm",
        "a"
      ],
      [
        "Ġl",
        "igh"
      ],
      [
        "Ġligh",
        "t"
      ],
      [
        "Ġf",
        "an"
      ],
      [
        "0",
        "0"
      ],
      [
        "k",
        "er"
      ],
      [
        "p",
        "ea"
      ],
      [
        "Ġs",
        "pea"
      ],
      [
        "Ġspea",
        "ker"
      ],
      [
        "1",
        "00"
      ],
      [
        "A",
        "m"
      ],
      [
        "C",
        "urrent"
      ],
      [
        "L",
        "oc"
      ],
      [
        "O",
        "w"
      ],
      [
        "O",
        "per"
      ],
      [
        "R",
        "ate"
      ],
      [
        "R",
        "egist"
      ],
      [
        "W",
        "h"
      ],
      [
        "a",
        "c"
      ],
      [
        "a",
        "p"
      ],
      [
        "b",
        "i"
      ],
      [
        "b",
        "ed"
      ],
      [
        "e",
        "m"
      ],
      [
        "l",
        "y"
      ],
      [
        "n",
        "er"
      ],
      [
        "t",
        "at"
      ],
      [
        "u",
        "s"
      ],
      [
        "x",
        "im"
      ],
      [
        "Â",
        "°"
      ],
      [
        "Ġ",
        "Level"
      ],
      [
        "Ġ",
        "Ow"
      ],
      [
        "ic",
        "h"
      ],
      [
        "at",
        "ure"
      ],
      [
        "in",
        "im"
      ],
      [
        "Ġc",
        "urrent"
      ],
      [
        "Ġc",
        "ap"
      ],
      [
        "ri",
        "bed"
      ],
      [
        "Ġo",
        "r"
      ],
      [
        "ep",
        "ort"
      ],
      [
        "Ġ(",
        "<"
      ],
      [
        "Ġl",
        "ow"
      ],
      [
        "per",
        "ature"
      ],
      [
        "ĠT",
        "em"
      ],
      [
        "Ġm",
        "edi"
      ],
      [
        "Ġm",
        "inim"
      ],
      [
        "esc",
        "ribed"
      ],
      [
        "ĠR",
        "egist"
      ],
      [
        "ĠR",
        "eport"
      ],
      [
        "Ġp",
        "ow"
      ],
      [
        "gist",
        "ry"
      ],
      [
        "ĠS",
        "tat"
      ],
      [
        "Ġre",
        "gistry"
      ],
      [
        "Ġoper",
        "ating"
      ],
      [
        "Ġh",
        "igh"
      ],
      [
        "Ġd",
        "escribed"
      ],
      [
        "Ġent",
        "ry"
      ],
      [
        "Ġma",
        "xim"
      ],
      [
        "Am",
        "bi"
      ],
      [
        "Loc",
        "ation"
      ],
      [
        "Oper",
        "ational"
      ],
      [
        "Regist",
        "ered"
      ],
      [
        "Wh",
        "ich"
      ],
      [
        "ac",
        "ity"
      ],
      [
        "ĠOw",
        "ner"
      ],
      [
        "Ġcurrent",
        "ly"
      ],
      [
        "Ġcap",
        "acity"
      ],
      [
        "ĠTem",
        "perature"
      ],
      [
        "Ġmedi",
        "um"
      ],
      [
        "Ġminim",
        "al"
      ],
      [
        "ĠRegist",
        "ry"
      ],
      [
        "Ġpow",
        "ered"
      ],
      [
        "ĠStat",
        "us"
      ],
      [
        "Ġmaxim",
        "um"
      ],
      [
        "Ambi",
        "ent"
      ],
      [
        "e",
        "at"
      ],
      [
        "Ġh",
        "eat"
      ],
      [
        "Ġheat",
        "er"
      ],
      [
        ".",
        "\""
      ],
      [
        "Ġt",
        "v"
      ],
      [
        "d",
        "s"
      ],
      [
        "l",
        "in"
      ],
      [
        "Ġl",
        "oc"
      ],
      [
        "Ġb",
        "lin"
      ],
      [
        "Ġloc",
        "k"
      ],
      [
        "Ġblin",
        "ds"
      ],
      [
        "Ġ",
        "E"
      ],
      [
        "p",
        "r"
      ],
      [
        "er",
        "pr"
      ],
      [
        "is",
        "e"
      ],
      [
        "erpr",
        "ise"
      ],
      [
        "Ġ",
        "w"
      ],
      [
        "Ġ",
        "I"
      ],
      [
        "Ġ",
        "g"
      ],
      [
        "a",
        "y"
      ],
      [
        "n",
        "t"
      ],
      [
        "o",
        "p"
      ],
      [
        "Ġ",
        "P"
      ],
      [
        "ĠE",
        "nt"
      ],
      [
        "ĠEnt",
        "erprise"
      ],
      [
        "o",
        "r"
      ],
      [
        "an",
        "c"
      ],
      [
        "Ġf",
        "or"
      ],
      [
        "Ġw",
        "e"
      ],
      [
        "Ġ",
        "r"
      ],
      [
        "?",
        "\""
      ],
      [
        "Ġ",
        "er"
      ],
      [
        "an",
        "n"
      ],
      [
        "ro",
        "r"
      ],
      [
        "ro",
        "om"
      ],
      [
        "Ġer",
        "ror"
      ],
      [
        "Ġp",
        "ro"
      ],
      [
        "ĠP",
        "ro"
      ],
      [
        "F",
        "re"
      ],
      [
        "Ġ",
        "A"
      ],
      [
        "Ġ",
        "D"
      ],
      [
        "Ġ",
        "Fre"
      ],
      [
        "Ġc",
        "h"
      ],
      [
        "ĠFre",
        "e"
      ],
      [
        "a",
        "v"
      ],
      [
        "w",
        "ay"
      ],
      [
        "ate",
        "way"
      ],
      [
        "Ġm",
        "y"
      ],
      [
        "Ġ",
        "en"
      ],
      [
        "ar",
        "a"
      ],
      [
        "W",
        "e"
      ],
      [
        "8",
        "2"
      ],
      [
        "C",
        "an"
      ],
      [
        "O",
        "C"
      ],
      [
        "f",
        "ic"
      ],
      [
        "i",
        "anc"
      ],
      [
        "i",
        "fic"
      ],
      [
        "l",
        "ianc"
      ],
      [
        "o",
        "ur"
      ],
      [
        "p",
        "e"
      ],
      [
        "p",
        "lianc"
      ],
      [
        "t",
        "ific"
      ],
      [
        "y",
        "our"
      ],
      [
        "y",
        "pe"
      ],
      [
        "Ġ",
        "6"
      ],
      [
        "Ġ",
        "your"
      ],
      [
        "er",
        "tific"
      ],
      [
        "Ġc",
        "om"
      ],
      [
        "Ġc",
        "op"
      ],
      [
        "Ġc",
        "ertific"
      ],
      [
        "ĠT",
        "ype"
      ],
      [
        "ĠS",
        "OC"
      ],
      [
        "ĠI",
        "I"
      ],
      [
        "Ġg",
        "et"
      ],
      [
        "plianc",
        "e"
      ],
      [
        "Ġcom",
        "pliance"
      ],
      [
        "Ġcop",
        "y"
      ],
      [
        "Ġcertific",
        "ate"
      ],
      [
        "1",
        "20"
      ],
      [
        "M",
        "y"
      ],
      [
        "a",
        "st"
      ],
      [
        "c",
        "ess"
      ],
      [
        "e",
        "k"
      ],
      [
        "e",
        "w"
      ],
      [
        "l",
        "ation"
      ],
      [
        "t",
        "ed"
      ],
      [
        "u",
        "al"
      ],
      [
        "Ġ",
        "5"
      ],
      [
        "Ġ",
        "ann"
      ],
      [
        "Ġt",
        "od"
      ],
      [
        "en",
        "ew"
      ],
      [
        "Ġc",
        "anc"
      ],
      [
        "es",
        "ted"
      ],
      [
        "el",
        "lation"
      ],
      [
        "Ġl",
        "ast"
      ],
      [
        "qu",
        "ested"
      ],
      [
        "Ġb",
        "ut"
      ],
      [
        "Ġre",
        "quested"
      ],
      [
        "Ġwe",
        "ek"
      ],
      [
        "Ġr",
        "enew"
      ],
      [
        "Ġpro",
        "cess"
      ],
      [
        "Ġann",
        "ual"
      ],
      [
        "Ġtod",
        "ay"
      ],
      [
        "Ġcanc",
        "ellation"
      ],
      [
        "Ġrenew",
        "al"
      ],
      [
        "Ġprocess",
        "ed"
      ],
      [
        "c",
        "on"
      ],
      [
        "Ġ",
        "room"
      ],
      [
        "al",
        "con"
      ],
      [
        "Ġl",
        "iv"
      ],
      [
        "Ġb",
        "alcon"
      ],
      [
        "Ġliv",
        "ing"
      ],
      [
        "Ġbalcon",
        "y"
      ],
      [
        "9",
        "82"
      ],
      [
        "a",
        "s"
      ],
      [
        "g",
        "ed"
      ],
      [
        "l",
        "ea"
      ],
      [
        "m",
        "edi"
      ],
      [
        "n",
        "it"
      ],
      [
        "o",
        "ice"
      ],
      [
        "v",
        "oice"
      ],
      [
        "w",
        "ice"
      ],
      [
        "y",
        "a"
      ],
      [
        "Ġ",
        "$"
      ],
      [
        "Ġ",
        "im"
      ],
      [
        "Ġt",
        "wice"
      ],
      [
        "at",
        "el"
      ],
      [
        "Ġc",
        "red"
      ],
      [
        "Ġc",
        "ard"
      ],
      [
        "iv",
        "ya"
      ],
      [
        "Ġin",
        "voice"
      ],
      [
        "ar",
        "age"
      ],
      [
        "ar",
        "ged"
      ],
      [
        "ever",
        "se"
      ],
      [
        "Ġw",
        "as"
      ],
      [
        "Ġg",
        "arage"
      ],
      [
        "ĠP",
        "lea"
      ],
      [
        "Ġr",
        "everse"
      ],
      [
        "ĠA",
        "nit"
      ],
      [
        "ĠD",
        "ivya"
      ],
      [
        "Ġch",
        "arged"
      ],
      [
        "982",
        "1"
      ],
      [
        "medi",
        "atel"
      ],
      [
        "Ġim",
        "mediatel"
      ],
      [
        "Ġcred",
        "it"
      ],
      [
        "ĠPlea",
        "se"
      ],
      [
        "ĠAnit",
        "a"
      ],
      [
        "Ġimmediatel",
        "y"
      ],
      [
        "0",
        "2"
      ],
      [
        "B",
        "a"
      ],
      [
        "G",
        "ateway"
      ],
      [
        "P",
        "I"
      ],
      [
        "S",
        "om"
      ],
      [
        "T",
        "h"
      ],
      [
        "b",
        "l"
      ],
      [
        "d",
        "p"
      ],
      [
        "e",
        "on"
      ],
      [
        "e",
        "an"
      ],
      [
        "o",
        "in"
      ],
      [
        "o",
        "st"
      ],
      [
        "s",
        "ive"
      ],
      [
        "t",
        "s"
      ],
      [
        "u",
        "bl"
      ],
      [
        "w",
        "ing"
      ],
      [
        "Ġ",
        "al"
      ],
      [
        "Ġ",
        "Ba"
      ],
      [
        "Ġ",
        "Gateway"
      ],
      [
        "at",
        "en"
      ],
      [
        "en",
        "sive"
      ],
      [
        "Ġth",
        "ro"
      ],
      [
        "Ġth",
        "re"
      ],
      [
        "Ġo",
        "ur"
      ],
      [
        "ur",
        "op"
      ],
      [
        "Ġm",
        "ess"
      ],
      [
        "ĠR",
        "av"
      ],
      [
        "Ġp",
        "ost"
      ],
      [
        "Ġp",
        "ubl"
      ],
      [
        "Ġh",
        "ara"
      ],
      [
        "ag",
        "es"
      ],
      [
        "Ġoff",
        "ensive"
      ],
      [
        "ss",
        "ment"
      ],
      [
        "ĠE",
        "urop"
      ],
      [
        "Ġg",
        "ateway"
      ],
      [
        "ann",
        "el"
      ],
      [
        "Ġerror",
        "s"
      ],
      [
        "ĠA",
        "PI"
      ],
      [
        "ĠD",
        "av"
      ],
      [
        "Ġch",
        "annel"
      ],
      [
        "Ġen",
        "dp"
      ],
      [
        "Ġ5",
        "02"
      ],
      [
        "Som",
        "eon"
      ],
      [
        "Th",
        "e"
      ],
      [
        "oin",
        "ts"
      ],
      [
        "Ġal",
        "l"
      ],
      [
        "ĠBa",
        "d"
      ],
      [
        "aten",
        "ing"
      ],
      [
        "Ġthro",
        "wing"
      ],
      [
        "Ġthre",
        "atening"
      ],
      [
        "Ġmess",
        "ages"
      ],
      [
        "ĠRav",
        "i"
      ],
      [
        "Ġpost",
        "ed"
      ],
      [
        "Ġpubl",
        "ic"
      ],
      [
        "Ġhara",
        "ssment"
      ],
      [
        "ĠEurop",
        "ean"
      ],
      [
        "ĠDav",
        "id"
      ],
      [
        "Ġendp",
        "oints"
      ],
      [
        "Someon",
        "e"
      ],
      [
        "4",
        "6"
      ],
      [
        "8",
        "4"
      ],
      [
        "8",
        "7"
      ],
      [
        "H",
        "ow"
      ],
      [
        "S",
        "O"
      ],
      [
        "d",
        "ate"
      ],
      [
        "e",
        "ed"
      ],
      [
        "f",
        "il"
      ],
      [
        "g",
        "ine"
      ],
      [
        "k",
        "t"
      ],
      [
        "l",
        "an"
      ],
      [
        "n",
        "eed"
      ],
      [
        "p",
        "date"
      ],
      [
        "r",
        "ic"
      ],
      [
        "t",
        "ing"
      ],
      [
        "t",
        "ure"
      ],
      [
        "u",
        "ating"
      ],
      [
        "u",
        "pdate"
      ],
      [
        "Ġ",
        "ev"
      ],
      [
        "Ġ",
        "40"
      ],
      [
        "Ġ",
        "We"
      ],
      [
        "Ġ",
        "need"
      ],
      [
        "Ġ",
        "update"
      ],
      [
        "er",
        "s"
      ],
      [
        "ic",
        "ture"
      ],
      [
        "al",
        "uating"
      ],
      [
        "Ġc",
        "ustom"
      ],
      [
        "es",
        "kt"
      ],
      [
        "ed",
        "room"
      ],
      [
        "st",
        "er"
      ],
      [
        "et",
        "ting"
      ],
      [
        "Ġa",
        "re"
      ],
      [
        "Ġs",
        "etting"
      ],
      [
        "Ġp",
        "lan"
      ],
      [
        "Ġp",
        "ric"
      ],
      [
        "Ġp",
        "icture"
      ],
      [
        "ĠS",
        "ara"
      ],
      [
        "ĠS",
        "SO"
      ],
      [
        "Ġb",
        "edroom"
      ],
      [
        "Ġ2",
        "9"
      ],
      [
        "Ġd",
        "o"
      ],
      [
        "Ġd",
        "eskt"
      ],
      [
        "Ġent",
        "erprise"
      ],
      [
        "Ġma",
        "ster"
      ],
      [
        "Ġpro",
        "fil"
      ],
      [
        "Ġen",
        "gine"
      ],
      [
        "Ġev",
        "aluating"
      ],
      [
        "Ġ40",
        "0"
      ],
      [
        "Ġsetting",
        "s"
      ],
      [
        "Ġplan",
        "s"
      ],
      [
        "Ġpric",
        "ing"
      ],
      [
        "ĠSara",
        "h"
      ],
      [
        "Ġdeskt",
        "op"
      ],
      [
        "Ġprofil",
        "e"
      ],
      [
        "Ġengine",
        "ers"
      ],
      [
        "1",
        "5"
      ],
      [
        "2",
        "7"
      ],
      [
        "K",
        "i"
      ],
      [
        "r",
        "an"
      ],
      [
        "Ġ",
        "9"
      ],
      [
        "Ġ",
        "20"
      ],
      [
        "Ġ",
        "Ki"
      ],
      [
        "Ġ2",
        "4"
      ],
      [
        "Ġ1",
        "8"
      ],
      [
        "Ġ1",
        "9"
      ],
      [
        "ĠKi",
        "ran"
      ],
      [
        "4",
        "3"
      ],
      [
        "9",
        "6"
      ],
      [
        "a",
        "se"
      ],
      [
        "d",
        "y"
      ],
      [
        "e",
        "er"
      ],
      [
        "u",
        "dy"
      ],
      [
        "Ġb",
        "ase"
      ],
      [
        "ĠM",
        "eer"
      ],
      [
        "Ġst",
        "udy"
      ],
      [
        "Ġ2",
        "2"
      ],
      [
        "Ġ1",
        "6"
      ],
      [
        "Ġbase",
        "ment"
      ],
      [
        "ĠMeer",
        "a"
      ],
      [
        "0",
        "3"
      ],
      [
        "1",
        "6"
      ],
      [
        "3",
        "2"
      ],
      [
        "4",
        "2"
      ],
      [
        "4",
        "4"
      ],
      [
        "4",
        "5"
      ],
      [
        "4",
        "8"
      ],
      [
        "5",
        "1"
      ],
      [
        "5",
        "7"
      ],
      [
        "6",
        "2"
      ],
      [
        "6",
        "9"
      ],
      [
        "c",
        "h"
      ],
      [
        "k",
        "it"
      ],
      [
        "Ġ",
        "7"
      ],
      [
        "Ġ",
        "kit"
      ],
      [
        "Ġ2",
        "3"
      ],
      [
        "Ġ1",
        "7"
      ],
      [
        "Ġ6",
        "8"
      ],
      [
        "ch",
        "en"
      ],
      [
        "Ġkit",
        "chen"
      ],
      [
        "0",
        "7"
      ],
      [
        "1",
        "27"
      ],
      [
        "2",
        "3"
      ],
      [
        "3",
        "1"
      ],
      [
        "3",
        "7"
      ],
      [
        "5",
        "37"
      ],
      [
        "7",
        "0"
      ],
      [
        "8",
        "5"
      ],
      [
        "8",
        "96"
      ],
      [
        "9",
        "0"
      ],
      [
        "h",
        "room"
      ],
      [
        "Ġ",
        "82"
      ],
      [
        "Ġ",
        "46"
      ],
      [
        "Ġ",
        "84"
      ],
      [
        "at",
        "hroom"
      ],
      [
        "Ġb",
        "athroom"
      ],
      [
        "Ġ2",
        "1"
      ],
      [
        "Ġ2",
        "5"
      ],
      [
        "Ġ2",
        "7"
      ],
      [
        "Ġ2",
        "8"
      ],
      [
        "Ġ3",
        "7"
      ],
      [
        "Ġ3",
        "8"
      ],
      [
        "Ġ6",
        "6"
      ],
      [
        "Ġ5",
        "3"
      ],
      [
        "Ġ9",
        "9"
      ],
      [
        "32",
        "1"
      ],
      [
        "0",
        "5"
      ],
      [
        "0",
        "85"
      ],
      [
        "1",
        "1"
      ],
      [
        "1",
        "3"
      ],
      [
        "1",
        "9"
      ],
      [
        "1",
        "60"
      ],
      [
        "1",
        "48"
      ],
      [
        "1",
        "896"
      ],
      [
        "1",
        "321"
      ],
      [
        "2",
        "60"
      ],
      [
        "2",
        "69"
      ],
      [
        "3",
        "3"
      ],
      [
        "3",
        "5"
      ],
      [
        "3",
        "9"
      ],
      [
        "3",
        "80"
      ],
      [
        "3",
        "03"
      ],
      [
        "3",
        "42"
      ],
      [
        "3",
        "45"
      ],
      [
        "3",
        "57"
      ],
      [
        "3",
        "085"
      ],
      [
        "4",
        "1"
      ],
      [
        "4",
        "7"
      ],
      [
        "4",
        "15"
      ],
      [
        "5",
        "6"
      ],
      [
        "5",
        "8"
      ],
      [
        "5",
        "00"
      ],
      [
        "5",
        "87"
      ],
      [
        "5",
        "96"
      ],
      [
        "5",
        "62"
      ],
      [
        "5",
        "07"
      ],
      [
        "6",
        "8"
      ],
      [
        "6",
        "27"
      ],
      [
        "6",
        "16"
      ],
      [
        "6",
        "57"
      ],
      [
        "6",
        "1321"
      ],
      [
        "6",
        "587"
      ],
      [
        "7",
        "4"
      ],
      [
        "7",
        "9"
      ],
      [
        "7",
        "84"
      ],
      [
        "7",
        "15"
      ],
      [
        "7",
        "03"
      ],
      [
        "7",
        "16"
      ],
      [
        "7",
        "44"
      ],
      [
        "7",
        "51"
      ],
      [
        "7",
        "62"
      ],
      [
        "7",
        "23"
      ],
      [
        "7",
        "74"
      ],
      [
        "8",
        "1"
      ],
      [
        "8",
        "9"
      ],
      [
        "8",
        "82"
      ],
      [
        "8",
        "87"
      ],
      [
        "8",
        "15"
      ],
      [
        "8",
        "31"
      ],
      [
        "8",
        "39"
      ],
      [
        "9",
        "4"
      ],
      [
        "9",
        "7"
      ],
      [
        "9",
        "9"
      ],
      [
        "9",
        "40"
      ],
      [
        "9",
        "60"
      ],
      [
        "9",
        "87"
      ],
      [
        "9",
        "15"
      ],
      [
        "9",
        "51"
      ],
      [
        "9",
        "321"
      ],
      [
        "9",
        "260"
      ],
      [
        "Ġ",
        "60"
      ],
      [
        "Ġ",
        "43"
      ],
      [
        "Ġ",
        "42"
      ],
      [
        "Ġ",
        "44"
      ],
      [
        "Ġ",
        "85"
      ],
      [
        "Ġ",
        "41"
      ],
      [
        "80",
        "774"
      ],
      [
        "Ġ2",
        "6"
      ],
      [
        "Ġ1",
        "00"
      ],
      [
        "Ġ3",
        "0"
      ],
      [
        "Ġ3",
        "4"
      ],
      [
        "Ġ6",
        "1"
      ],
      [
        "Ġ6",
        "2"
      ],
      [
        "Ġ6",
        "3"
      ],
      [
        "Ġ6",
        "5"
      ],
      [
        "Ġ6",
        "7"
      ],
      [
        "Ġ6",
        "9"
      ],
      [
        "120",
        "11"
      ],
      [
        "Ġ5",
        "9"
      ],
      [
        "46",
        "5"
      ],
      [
        "46",
        "27"
      ],
      [
        "46",
        "127"
      ],
      [
        "84",
        "537"
      ],
      [
        "84",
        "839"
      ],
      [
        "84",
        "987"
      ],
      [
        "87",
        "0"
      ],
      [
        "87",
        "882"
      ],
      [
        "15",
        "751"
      ],
      [
        "27",
        "1"
      ],
      [
        "Ġ9",
        "1"
      ],
      [
        "Ġ9",
        "5"
      ],
      [
        "Ġ9",
        "8"
      ],
      [
        "43",
        "16"
      ],
      [
        "43",
        "723"
      ],
      [
        "96",
        "45"
      ],
      [
        "32",
        "269"
      ],
      [
        "44",
        "715"
      ],
      [
        "48",
        "1"
      ],
      [
        "51",
        "120"
      ],
      [
        "62",
        "870"
      ],
      [
        "Ġ7",
        "2"
      ],
      [
        "Ġ7",
        "7"
      ],
      [
        "Ġ7",
        "9"
      ],
      [
        "127",
        "33"
      ],
      [
        "31",
        "716"
      ],
      [
        "537",
        "45"
      ],
      [
        "70",
        "415"
      ],
      [
        "70",
        "465"
      ],
      [
        "160",
        "07"
      ],
      [
        "148",
        "68"
      ],
      [
        "1896",
        "6"
      ],
      [
        "35",
        "271"
      ],
      [
        "380",
        "03"
      ],
      [
        "303",
        "90"
      ],
      [
        "342",
        "46"
      ],
      [
        "357",
        "97"
      ],
      [
        "3085",
        "2"
      ],
      [
        "47",
        "345"
      ],
      [
        "56",
        "616"
      ],
      [
        "500",
        "13"
      ],
      [
        "596",
        "48"
      ],
      [
        "562",
        "90"
      ],
      [
        "507",
        "43"
      ],
      [
        "627",
        "42"
      ],
      [
        "657",
        "69"
      ],
      [
        "6587",
        "3"
      ],
      [
        "79",
        "896"
      ],
      [
        "784",
        "58"
      ],
      [
        "703",
        "94"
      ],
      [
        "744",
        "40"
      ],
      [
        "762",
        "99"
      ],
      [
        "89",
        "481"
      ],
      [
        "887",
        "69"
      ],
      [
        "815",
        "81"
      ],
      [
        "831",
        "87"
      ],
      [
        "940",
        "57"
      ],
      [
        "960",
        "19"
      ],
      [
        "915",
        "23"
      ],
      [
        "951",
        "05"
      ],
      [
        "9321",
        "4"
      ],
      [
        "9260",
        "6"
      ],
      [
        "4627",
        "6"
      ],
      [
        "4316",
        "7"
      ],
      [
        "9645",
        "9"
      ]
    ]
  }
}